#include "sin_wave_model.h"

unsigned char sine_model_quantized_tflite[] = {
    0x1c, 0x00, 0x00, 0x00, 0x54, 0x46, 0x4c, 0x33, 0x14, 0x00, 0x20, 0x00,
    0x1c, 0x00, 0x18, 0x00, 0x14, 0x00, 0x10, 0x00, 0x0c, 0x00, 0x00, 0x00,
    0x08, 0x00, 0x04, 0x00, 0x14, 0x00, 0x00, 0x00, 0x1c, 0x00, 0x00, 0x00,
    0x90, 0x00, 0x00, 0x00, 0xe8, 0x00, 0x00, 0x00, 0x84, 0x0b, 0x00, 0x00,
    0x94, 0x0b, 0x00, 0x00, 0x8c, 0x10, 0x00, 0x00, 0x03, 0x00, 0x00, 0x00,
    0x01, 0x00, 0x00, 0x00, 0x10, 0x00, 0x00, 0x00, 0x00, 0x00, 0x0a, 0x00,
    0x10, 0x00, 0x0c, 0x00, 0x08, 0x00, 0x04, 0x00, 0x0a, 0x00, 0x00, 0x00,
    0x0c, 0x00, 0x00, 0x00, 0x1c, 0x00, 0x00, 0x00, 0x38, 0x00, 0x00, 0x00,
    0x0f, 0x00, 0x00, 0x00, 0x73, 0x65, 0x72, 0x76, 0x69, 0x6e, 0x67, 0x5f,
    0x64, 0x65, 0x66, 0x61, 0x75, 0x6c, 0x74, 0x00, 0x01, 0x00, 0x00, 0x00,
    0x04, 0x00, 0x00, 0x00, 0x98, 0xff, 0xff, 0xff, 0x09, 0x00, 0x00, 0x00,
    0x04, 0x00, 0x00, 0x00, 0x07, 0x00, 0x00, 0x00, 0x64, 0x65, 0x6e, 0x73,
    0x65, 0x5f, 0x32, 0x00, 0x01, 0x00, 0x00, 0x00, 0x04, 0x00, 0x00, 0x00,
    0x46, 0xf5, 0xff, 0xff, 0x04, 0x00, 0x00, 0x00, 0x0b, 0x00, 0x00, 0x00,
    0x64, 0x65, 0x6e, 0x73, 0x65, 0x5f, 0x69, 0x6e, 0x70, 0x75, 0x74, 0x00,
    0x02, 0x00, 0x00, 0x00, 0x34, 0x00, 0x00, 0x00, 0x04, 0x00, 0x00, 0x00,
    0xdc, 0xff, 0xff, 0xff, 0x0c, 0x00, 0x00, 0x00, 0x04, 0x00, 0x00, 0x00,
    0x13, 0x00, 0x00, 0x00, 0x43, 0x4f, 0x4e, 0x56, 0x45, 0x52, 0x53, 0x49,
    0x4f, 0x4e, 0x5f, 0x4d, 0x45, 0x54, 0x41, 0x44, 0x41, 0x54, 0x41, 0x00,
    0x08, 0x00, 0x0c, 0x00, 0x08, 0x00, 0x04, 0x00, 0x08, 0x00, 0x00, 0x00,
    0x0b, 0x00, 0x00, 0x00, 0x04, 0x00, 0x00, 0x00, 0x13, 0x00, 0x00, 0x00,
    0x6d, 0x69, 0x6e, 0x5f, 0x72, 0x75, 0x6e, 0x74, 0x69, 0x6d, 0x65, 0x5f,
    0x76, 0x65, 0x72, 0x73, 0x69, 0x6f, 0x6e, 0x00, 0x0d, 0x00, 0x00, 0x00,
    0x98, 0x0a, 0x00, 0x00, 0x90, 0x0a, 0x00, 0x00, 0x40, 0x0a, 0x00, 0x00,
    0x24, 0x0a, 0x00, 0x00, 0x94, 0x09, 0x00, 0x00, 0x04, 0x09, 0x00, 0x00,
    0xf4, 0x00, 0x00, 0x00, 0xa4, 0x00, 0x00, 0x00, 0x9c, 0x00, 0x00, 0x00,
    0x94, 0x00, 0x00, 0x00, 0x8c, 0x00, 0x00, 0x00, 0x6c, 0x00, 0x00, 0x00,
    0x04, 0x00, 0x00, 0x00, 0xf2, 0xf5, 0xff, 0xff, 0x04, 0x00, 0x00, 0x00,
    0x58, 0x00, 0x00, 0x00, 0x0c, 0x00, 0x00, 0x00, 0x08, 0x00, 0x0e, 0x00,
    0x08, 0x00, 0x04, 0x00, 0x08, 0x00, 0x00, 0x00, 0x10, 0x00, 0x00, 0x00,
    0x28, 0x00, 0x00, 0x00, 0x00, 0x00, 0x06, 0x00, 0x08, 0x00, 0x04, 0x00,
    0x06, 0x00, 0x00, 0x00, 0x04, 0x00, 0x00, 0x00, 0x01, 0x00, 0x00, 0x00,
    0xea, 0x03, 0x00, 0x00, 0x00, 0x00, 0x0a, 0x00, 0x10, 0x00, 0x0c, 0x00,
    0x08, 0x00, 0x04, 0x00, 0x0a, 0x00, 0x00, 0x00, 0x02, 0x00, 0x00, 0x00,
    0x02, 0x00, 0x00, 0x00, 0x04, 0x00, 0x00, 0x00, 0x06, 0x00, 0x00, 0x00,
    0x32, 0x2e, 0x31, 0x35, 0x2e, 0x30, 0x00, 0x00, 0x56, 0xf6, 0xff, 0xff,
    0x04, 0x00, 0x00, 0x00, 0x10, 0x00, 0x00, 0x00, 0x31, 0x2e, 0x35, 0x2e,
    0x30, 0x00, 0x00, 0x00, 0x00, 0x00, 0x00, 0x00, 0x00, 0x00, 0x00, 0x00,
    0x40, 0xf1, 0xff, 0xff, 0x44, 0xf1, 0xff, 0xff, 0x48, 0xf1, 0xff, 0xff,
    0x7e, 0xf6, 0xff, 0xff, 0x04, 0x00, 0x00, 0x00, 0x40, 0x00, 0x00, 0x00,
    0x4f, 0xf8, 0xc1, 0x3e, 0x2d, 0x6c, 0xaf, 0x3f, 0xf0, 0x8a, 0xff, 0xbc,
    0x97, 0xba, 0x91, 0x3e, 0x4f, 0xf1, 0xf4, 0x3e, 0x4b, 0x1f, 0x91, 0xbd,
    0xb2, 0xda, 0x89, 0x3f, 0x76, 0xed, 0xc1, 0x3e, 0x37, 0x16, 0x03, 0x3f,
    0x70, 0x9b, 0xbd, 0xbe, 0x00, 0xd2, 0x04, 0x3f, 0x71, 0x02, 0x37, 0xbf,
    0x2f, 0xe5, 0xaa, 0x3f, 0xca, 0x89, 0xca, 0x3e, 0x34, 0xfa, 0xda, 0xbd,
    0xbc, 0xab, 0x80, 0x3e, 0xca, 0xf6, 0xff, 0xff, 0x04, 0x00, 0x00, 0x00,
    0x00, 0x08, 0x00, 0x00, 0xbc, 0x75, 0x74, 0xbe, 0xe0, 0xa8, 0x98, 0xbe,
    0x54, 0xfd, 0x0e, 0xbe, 0x07, 0x47, 0x24, 0x3d, 0x68, 0xeb, 0x0d, 0xbd,
    0x20, 0x1a, 0x12, 0x3e, 0xbc, 0xcc, 0x62, 0xbe, 0xb0, 0xbb, 0x83, 0x3e,
    0x25, 0xd0, 0x82, 0x3e, 0xb7, 0xff, 0xb2, 0x3e, 0x03, 0xa7, 0xd8, 0x3d,
    0xfb, 0x83, 0x29, 0xbe, 0x8c, 0xb9, 0x97, 0x3d, 0x1f, 0x55, 0xa6, 0x3d,
    0xa4, 0x3e, 0x94, 0xbd, 0x1d, 0x60, 0x5a, 0x3e, 0x6b, 0x2a, 0x99, 0x3e,
    0xe5, 0x6e, 0x0b, 0xbe, 0xed, 0xf3, 0xb0, 0xbe, 0x60, 0xb4, 0xe0, 0x3d,
    0xaa, 0x0e, 0x59, 0xbe, 0x60, 0x05, 0xe5, 0x3c, 0x5b, 0x59, 0x47, 0xbe,
    0x20, 0x75, 0xfa, 0x3d, 0x91, 0x84, 0xc1, 0xbd, 0x4f, 0xac, 0xa1, 0xbe,
    0x0d, 0x9f, 0x94, 0xbe, 0x93, 0x49, 0xec, 0xbb, 0x78, 0x56, 0xf8, 0xbd,
    0xc0, 0x52, 0x91, 0x3c, 0x6d, 0x22, 0xa2, 0x3e, 0x1b, 0x58, 0xb2, 0x3e,
    0x60, 0xe5, 0x0e, 0x3d, 0x3a, 0x86, 0x93, 0xbe, 0x7b, 0x14, 0x9a, 0x3e,
    0xd9, 0x4f, 0x6a, 0x3d, 0xa0, 0x92, 0xd5, 0xbe, 0x67, 0xf5, 0x04, 0xbe,
    0x7e, 0x54, 0x91, 0x3e, 0xfb, 0x67, 0xc9, 0xbe, 0x28, 0x59, 0xe3, 0x3d,
    0xca, 0x25, 0x67, 0x3e, 0x96, 0x96, 0xb1, 0xbd, 0x4c, 0xa1, 0xac, 0x3d,
    0x40, 0x11, 0xf5, 0x3b, 0xa8, 0x4b, 0xa4, 0xbe, 0x1d, 0x02, 0x43, 0xbe,
    0x06, 0x25, 0x2c, 0x3a, 0xa2, 0x0d, 0x27, 0x3e, 0x52, 0x7c, 0x86, 0x3e,
    0x7d, 0xd3, 0xbb, 0x3e, 0x6e, 0x24, 0x76, 0xbe, 0xd2, 0x92, 0x0e, 0x3e,
    0xf9, 0xb9, 0xa8, 0x3e, 0x98, 0x9d, 0x8d, 0xbe, 0x57, 0x8f, 0x90, 0x3e,
    0x46, 0x9a, 0x79, 0xbf, 0x41, 0xb3, 0xae, 0x3e, 0xb6, 0x48, 0x54, 0xbe,
    0xbe, 0x63, 0x5a, 0x3e, 0xc8, 0xdd, 0x45, 0xbd, 0x3a, 0x4a, 0x08, 0xbf,
    0x99, 0x50, 0x94, 0x3e, 0x26, 0x21, 0xdf, 0xbd, 0x68, 0xa3, 0xfd, 0x3d,
    0x8d, 0x1c, 0x0a, 0xbd, 0xdc, 0x2d, 0x8a, 0xbd, 0xd9, 0x38, 0x6c, 0xbe,
    0x34, 0x94, 0x94, 0x3e, 0x49, 0xd2, 0x7f, 0xbe, 0x02, 0x8e, 0x2e, 0x3e,
    0x5f, 0x7a, 0xce, 0x3b, 0x2a, 0xdc, 0x2a, 0x3e, 0xca, 0x90, 0x21, 0x3e,
    0x51, 0x41, 0x17, 0x3e, 0x64, 0x17, 0x99, 0xbe, 0x8b, 0xaf, 0x41, 0xbe,
    0xf3, 0x13, 0x81, 0xbd, 0xd1, 0x55, 0x04, 0xbe, 0x20, 0x56, 0x1b, 0x3e,
    0x44, 0xd7, 0xcc, 0xbd, 0x94, 0x27, 0xb5, 0x3d, 0xad, 0xa8, 0x93, 0xbe,
    0x00, 0xba, 0x9b, 0x3c, 0x38, 0x22, 0x9f, 0x3e, 0xc0, 0x07, 0xa0, 0xbb,
    0x1f, 0x09, 0xde, 0xbc, 0x80, 0x09, 0xfe, 0x3c, 0xaf, 0x1f, 0xb0, 0x3d,
    0x4c, 0x71, 0x08, 0xbd, 0xb0, 0x8d, 0x5c, 0xbd, 0xda, 0x29, 0x9f, 0x3e,
    0x0d, 0xbd, 0x8f, 0xbe, 0x5c, 0x77, 0x66, 0x3e, 0x21, 0x34, 0xa8, 0xbe,
    0x31, 0x42, 0xb3, 0x3e, 0x17, 0x39, 0xa4, 0xbe, 0x25, 0x69, 0x76, 0x3e,
    0xb7, 0xe6, 0x8b, 0xbe, 0xdd, 0x8b, 0xa9, 0x3d, 0xcb, 0xf6, 0x4d, 0x3e,
    0x2c, 0xa8, 0xf7, 0x3d, 0x62, 0xae, 0xd5, 0xbd, 0x74, 0xb1, 0xad, 0x3e,
    0xca, 0x84, 0x7f, 0x3e, 0x78, 0x5c, 0x10, 0x3e, 0xe6, 0x47, 0x8d, 0x3e,
    0x96, 0xd1, 0x5b, 0x3e, 0x86, 0xb3, 0x09, 0x3e, 0x18, 0x0e, 0xb2, 0x3e,
    0x08, 0x33, 0x27, 0xbd, 0x33, 0xec, 0x76, 0xbe, 0xa4, 0x6f, 0x5e, 0xbe,
    0x3f, 0x73, 0x01, 0xbe, 0x00, 0x0b, 0x87, 0xbe, 0x74, 0x7a, 0xa7, 0xbd,
    0xb8, 0x0c, 0xad, 0x3d, 0x97, 0x51, 0x8b, 0x3e, 0xd4, 0xf2, 0x0e, 0x3e,
    0xbf, 0xc7, 0x4c, 0xbe, 0x83, 0xe7, 0x98, 0x3e, 0x56, 0xa6, 0xc5, 0xbe,
    0xb2, 0x0d, 0x04, 0x3e, 0xab, 0x1f, 0x8e, 0x3e, 0x10, 0xc1, 0x9b, 0x3c,
    0x48, 0xf7, 0xdd, 0x3d, 0x57, 0xf3, 0xb2, 0x3e, 0x50, 0xa0, 0x97, 0x3d,
    0xf7, 0x35, 0xa1, 0xbe, 0x77, 0x80, 0x7c, 0xbe, 0x4a, 0x11, 0x1f, 0x3e,
    0x46, 0x87, 0x42, 0xbe, 0x9b, 0xda, 0x5a, 0xbd, 0xba, 0x73, 0x31, 0x3e,
    0x83, 0xa1, 0x9b, 0xbd, 0x60, 0x71, 0xbf, 0xbe, 0x09, 0x75, 0xa6, 0x3e,
    0x4a, 0x2c, 0x16, 0xbe, 0xe5, 0xec, 0xa0, 0x3e, 0xdb, 0x33, 0x0c, 0xbe,
    0xe0, 0x6f, 0x24, 0x3c, 0xfd, 0xa4, 0xc2, 0xbe, 0x47, 0x07, 0xaf, 0xbe,
    0x76, 0xf2, 0x07, 0xbe, 0xec, 0x31, 0xa4, 0x3d, 0xf1, 0xc9, 0x99, 0x3e,
    0xc9, 0x16, 0xa7, 0xbe, 0x38, 0x53, 0xa0, 0xbe, 0x12, 0x0d, 0xaa, 0xbe,
    0x1a, 0x66, 0xa2, 0xbe, 0xfa, 0xb0, 0x05, 0x3d, 0x2f, 0xb3, 0xa0, 0x3e,
    0x69, 0xc2, 0xd3, 0xbe, 0x21, 0x3a, 0xa2, 0x3e, 0xfa, 0xc5, 0x33, 0x3e,
    0x2f, 0x2b, 0xa5, 0x3e, 0xc6, 0x84, 0x65, 0xbe, 0x5f, 0x79, 0x80, 0x3e,
    0xff, 0x2e, 0x99, 0x3e, 0xac, 0x0a, 0xb1, 0x3d, 0xbf, 0xc5, 0x39, 0xbe,
    0xe1, 0x59, 0x71, 0xbe, 0x33, 0x0d, 0x85, 0xbe, 0x0a, 0x4f, 0xfa, 0xbd,
    0xf7, 0x34, 0x0c, 0x3e, 0x9f, 0x9d, 0xb3, 0x3e, 0x9c, 0xda, 0x0d, 0xbd,
    0xc0, 0x07, 0x35, 0x3e, 0x80, 0xf0, 0xeb, 0x3c, 0x95, 0x4d, 0xa0, 0xbe,
    0x28, 0x0d, 0xb4, 0xbe, 0x44, 0x70, 0xe0, 0x3d, 0xad, 0x28, 0x9e, 0x3e,
    0x46, 0x89, 0x8a, 0x3e, 0x89, 0xde, 0xb4, 0x3e, 0x49, 0xf9, 0x30, 0x3f,
    0xe4, 0x04, 0x23, 0xbe, 0x56, 0x2f, 0xe6, 0x3c, 0xec, 0x56, 0x8a, 0xbd,
    0xd0, 0x98, 0x09, 0xbe, 0x73, 0x60, 0xa4, 0x3e, 0xe2, 0xdf, 0x58, 0x3e,
    0xbc, 0xa4, 0xa8, 0xbd, 0x3f, 0x5d, 0x92, 0xbe, 0x36, 0xc7, 0xc9, 0xbe,
    0xb5, 0xf5, 0x2d, 0xbd, 0x52, 0xc8, 0x44, 0x3e, 0x77, 0x54, 0x96, 0x3e,
    0xb8, 0x2e, 0xb0, 0xbd, 0x08, 0x5e, 0x41, 0xbe, 0x4c, 0x84, 0x63, 0xbe,
    0xa8, 0xd4, 0xec, 0x3d, 0xd2, 0xfa, 0x41, 0x3e, 0x71, 0x09, 0x03, 0x3e,
    0x5e, 0x65, 0xf3, 0xbd, 0xf4, 0xfd, 0xd5, 0x3e, 0x12, 0x43, 0x31, 0xbd,
    0x26, 0xae, 0x25, 0x3e, 0x0e, 0x76, 0x98, 0xbe, 0xb8, 0xf6, 0x24, 0xbe,
    0xa0, 0xac, 0xbd, 0x3d, 0x4e, 0x06, 0x6f, 0x3e, 0xca, 0xc2, 0xb4, 0x3e,
    0x9c, 0x5f, 0xb3, 0x3d, 0xc0, 0xfc, 0x2d, 0x3d, 0x9e, 0xb8, 0xc1, 0xbe,
    0x1c, 0xeb, 0xa7, 0xbe, 0xda, 0x17, 0xb8, 0x3d, 0xa0, 0x54, 0x3f, 0xbc,
    0xce, 0xb8, 0x25, 0x3e, 0x42, 0x3f, 0x8b, 0x3e, 0x4a, 0x30, 0x0e, 0xbe,
    0x36, 0x68, 0x69, 0x3e, 0x0e, 0xab, 0x80, 0xbe, 0x46, 0xf3, 0xbb, 0xbc,
    0xd0, 0x24, 0xa3, 0xbd, 0x6a, 0x09, 0xb2, 0xbe, 0x9c, 0xf8, 0xfd, 0x3b,
    0x52, 0xe3, 0x44, 0x3e, 0xc1, 0x8e, 0x9d, 0xbd, 0x4c, 0xea, 0x78, 0xbe,
    0xe5, 0x83, 0xbc, 0xbe, 0x4e, 0x63, 0x51, 0x3e, 0x00, 0x65, 0x14, 0x3e,
    0xbf, 0x97, 0xa1, 0x3e, 0x94, 0x54, 0xbf, 0x3d, 0x84, 0x8e, 0x8d, 0xbe,
    0xd1, 0xf9, 0x71, 0x3e, 0x5e, 0x44, 0x4e, 0xbe, 0x15, 0x3c, 0x35, 0xbe,
    0x6f, 0xf5, 0xc9, 0xbe, 0x0d, 0x58, 0x68, 0xbe, 0x8f, 0x21, 0x32, 0xbe,
    0x30, 0x21, 0x95, 0x3d, 0x31, 0x9b, 0x78, 0x3e, 0xff, 0xf2, 0x9f, 0xbe,
    0xf0, 0x97, 0xdf, 0x3c, 0xe5, 0x96, 0x11, 0xbe, 0x24, 0x58, 0x8c, 0xbd,
    0xe5, 0x8e, 0x25, 0x3e, 0x00, 0xf8, 0x62, 0xb9, 0x55, 0x72, 0xb2, 0xbd,
    0xb2, 0x9e, 0x75, 0xbe, 0x41, 0x2b, 0xab, 0x3e, 0xe3, 0x7d, 0x3d, 0xbd,
    0x95, 0x7a, 0x93, 0x3e, 0x6a, 0x07, 0x50, 0x3e, 0x22, 0xd0, 0xa6, 0xbe,
    0xbe, 0x6c, 0x33, 0x3e, 0x2d, 0x23, 0x98, 0xbe, 0x40, 0xd4, 0x37, 0x3d,
    0xb1, 0xb5, 0x09, 0xbd, 0x0c, 0x04, 0x02, 0x3e, 0x72, 0x8a, 0x44, 0x3e,
    0x48, 0x40, 0xf0, 0xbd, 0x92, 0x05, 0x3d, 0x3e, 0xa7, 0x11, 0x85, 0x3e,
    0xdd, 0x04, 0xbd, 0xbe, 0xae, 0xaf, 0x89, 0xbe, 0x3e, 0x48, 0x02, 0xbe,
    0x5f, 0x3d, 0x5d, 0xbe, 0xc4, 0xb5, 0xdc, 0x3d, 0x6b, 0xa7, 0x98, 0xbe,
    0xe9, 0xe3, 0x25, 0x3d, 0x68, 0xe9, 0x0c, 0x3d, 0x86, 0xfe, 0x36, 0x3e,
    0xb1, 0x23, 0x67, 0xbe, 0x35, 0xfa, 0x84, 0x3e, 0x5c, 0xe8, 0x97, 0xbd,
    0x79, 0x74, 0x02, 0xbd, 0xc0, 0xe9, 0x12, 0x3e, 0x83, 0x6c, 0x32, 0xbe,
    0x85, 0x90, 0x9f, 0xbe, 0x1e, 0xb6, 0xa6, 0xbe, 0xd1, 0x4d, 0xd2, 0xbc,
    0x20, 0x6c, 0xaa, 0xbc, 0x26, 0xc1, 0x3b, 0xbe, 0xc5, 0xd0, 0xab, 0xbe,
    0xe4, 0xb2, 0x70, 0x3e, 0xa4, 0xd2, 0x15, 0x3e, 0x37, 0x12, 0x89, 0x3d,
    0x1d, 0x0b, 0xa3, 0x3e, 0xc0, 0x9a, 0xa4, 0x3d, 0xe5, 0x44, 0x9b, 0x3e,
    0x24, 0xaa, 0xa0, 0x3d, 0x9a, 0x83, 0x4c, 0xbd, 0x27, 0x09, 0x99, 0xbe,
    0x58, 0x78, 0x47, 0xbd, 0x06, 0x70, 0xe1, 0xbd, 0x99, 0x68, 0x98, 0xbd,
    0x08, 0x1e, 0x2f, 0x3d, 0x32, 0x21, 0x24, 0x3e, 0x6f, 0xcc, 0x65, 0xbc,
    0x14, 0x2c, 0xf8, 0x3d, 0x07, 0x73, 0x8f, 0xbd, 0x76, 0x9d, 0x9b, 0xbe,
    0x80, 0xe8, 0x67, 0xbb, 0x7f, 0x5c, 0xa9, 0x3e, 0x9f, 0x24, 0x08, 0x3e,
    0xd6, 0x38, 0x2c, 0xbe, 0xac, 0x97, 0x88, 0x3d, 0x75, 0x32, 0x93, 0x3e,
    0xd2, 0xdb, 0x5b, 0xbe, 0x59, 0xe2, 0xfd, 0xbd, 0x2a, 0x31, 0x74, 0xbe,
    0x35, 0xcd, 0x13, 0x3e, 0x64, 0x54, 0x93, 0xbe, 0xff, 0xa1, 0xa3, 0x3e,
    0x71, 0xe3, 0xac, 0x3e, 0x70, 0x77, 0x83, 0xbc, 0xe4, 0x5c, 0xad, 0xbd,
    0x80, 0x79, 0x8a, 0x3b, 0x1a, 0x18, 0x90, 0x3d, 0x85, 0x55, 0xa9, 0x3e,
    0x88, 0x62, 0x82, 0x3d, 0x59, 0x58, 0x94, 0x3c, 0xd7, 0xac, 0x53, 0xbe,
    0xb3, 0xf3, 0xc8, 0xbc, 0x27, 0x5e, 0xa1, 0x3e, 0xfb, 0x2e, 0x95, 0xbe,
    0x40, 0x3b, 0x95, 0x3d, 0x52, 0xee, 0x33, 0x3b, 0xac, 0x2f, 0x8d, 0x3d,
    0x08, 0x69, 0xcd, 0xbc, 0x41, 0xf3, 0xaf, 0x3e, 0x34, 0xcf, 0xe0, 0x3d,
    0x27, 0x30, 0x96, 0x3e, 0x1f, 0x23, 0x7d, 0xbe, 0x88, 0x6e, 0x91, 0xbe,
    0xa6, 0x3f, 0x11, 0x3e, 0x25, 0xe3, 0x96, 0x3d, 0x45, 0x46, 0xa4, 0xbe,
    0xcb, 0x15, 0xa3, 0xbe, 0xd6, 0x35, 0x22, 0x3e, 0x08, 0xc3, 0x86, 0xbd,
    0x70, 0xe5, 0xf1, 0xbe, 0x12, 0x13, 0x20, 0x3e, 0x3c, 0x04, 0x8d, 0xbe,
    0x38, 0xd8, 0x2d, 0x3d, 0xb2, 0x79, 0x59, 0x3e, 0xa5, 0x69, 0xc6, 0x3c,
    0x88, 0xa0, 0xd0, 0xbd, 0x5e, 0xad, 0xed, 0x3d, 0x6c, 0x4b, 0xd1, 0xbd,
    0xed, 0x40, 0x36, 0x3e, 0x40, 0x6a, 0xec, 0xbd, 0xd2, 0x3d, 0x14, 0x3e,
    0xbc, 0xc6, 0x96, 0x3e, 0x6c, 0x86, 0xe3, 0x3d, 0x1b, 0x30, 0x93, 0x3e,
    0xd8, 0x01, 0x02, 0x3d, 0xe0, 0x4b, 0xdf, 0x3d, 0x05, 0xf5, 0x94, 0xbe,
    0x25, 0xbc, 0x9c, 0xbe, 0xf4, 0xe4, 0x23, 0xbe, 0x12, 0x54, 0xb5, 0x3d,
    0x23, 0x85, 0x1f, 0xbe, 0xb9, 0xc3, 0xb1, 0xbe, 0xe0, 0xf1, 0xa4, 0x3d,
    0x2b, 0xf2, 0x8d, 0xbe, 0x8c, 0x6b, 0xc1, 0xbd, 0x45, 0xb3, 0x96, 0xbe,
    0xb3, 0x0a, 0x88, 0xbe, 0x25, 0x6d, 0x9c, 0x3e, 0x20, 0x0f, 0x85, 0xbe,
    0x67, 0x20, 0x07, 0x3d, 0xb2, 0xa5, 0x21, 0x3e, 0x41, 0x79, 0x26, 0xbe,
    0xff, 0x98, 0x29, 0xbe, 0xaf, 0x6c, 0x41, 0xbd, 0x6d, 0x61, 0x50, 0x3e,
    0x08, 0x08, 0x1f, 0xbd, 0xe8, 0x4d, 0x9a, 0x3e, 0x3c, 0xfd, 0x82, 0xbe,
    0x07, 0xca, 0x82, 0x3e, 0x26, 0x02, 0x42, 0x3e, 0x16, 0xe8, 0x71, 0xbe,
    0x3a, 0x8b, 0xb3, 0x3e, 0xd0, 0x1b, 0x7a, 0x3d, 0xa5, 0x19, 0x51, 0xbe,
    0x74, 0x59, 0xc8, 0xbd, 0x5a, 0x78, 0x3f, 0xbd, 0xb0, 0x63, 0x01, 0x3e,
    0xf8, 0xb7, 0x5b, 0xbd, 0xd1, 0xf3, 0x8d, 0x3e, 0x07, 0xdd, 0x87, 0xbe,
    0xb6, 0x17, 0x91, 0xbe, 0x72, 0xc9, 0x91, 0x3e, 0xce, 0xe7, 0x9b, 0x3e,
    0xc9, 0x2c, 0x81, 0x3e, 0xe1, 0xcc, 0x9f, 0x3e, 0x85, 0xb5, 0xb8, 0x3d,
    0x9c, 0x74, 0x9f, 0x3d, 0x70, 0xb2, 0xf3, 0x3d, 0xfe, 0xdf, 0x1f, 0x3e,
    0x69, 0xb9, 0xb0, 0xbe, 0x4e, 0x9d, 0x29, 0xbe, 0x54, 0xad, 0x5c, 0x3e,
    0x70, 0xc0, 0x72, 0x3d, 0xf6, 0x74, 0x62, 0xbf, 0xb2, 0xf4, 0x1a, 0x3e,
    0xcc, 0x56, 0x7f, 0x3e, 0x5a, 0x3d, 0xc7, 0xbe, 0xa6, 0xed, 0x9d, 0xbe,
    0xcc, 0x29, 0x2c, 0xbe, 0x6c, 0x20, 0x9b, 0xbe, 0x42, 0x81, 0x74, 0x3e,
    0x82, 0xba, 0x0d, 0x3e, 0x29, 0x04, 0x5d, 0x3f, 0xcc, 0x5d, 0xe2, 0x3d,
    0x40, 0x91, 0x3c, 0xbe, 0x5f, 0x6d, 0xd5, 0xbe, 0xb2, 0xb7, 0x46, 0x3e,
    0x87, 0x10, 0xdd, 0xbd, 0x86, 0xd2, 0x44, 0x3e, 0x80, 0xc7, 0x43, 0x3b,
    0xca, 0xca, 0x59, 0x3e, 0x0d, 0x14, 0xa3, 0x3e, 0x81, 0xfe, 0xa0, 0x3e,
    0xd2, 0xa7, 0x50, 0xbe, 0x22, 0x20, 0x8b, 0x3e, 0x38, 0x92, 0x5e, 0x3d,
    0xc3, 0x6d, 0x04, 0x3e, 0x32, 0x58, 0x0d, 0xbc, 0xb6, 0x41, 0x3e, 0x3e,
    0xf8, 0x51, 0xd9, 0x3d, 0x82, 0x19, 0x17, 0x3e, 0xe4, 0x1f, 0xee, 0x3d,
    0xdb, 0xa4, 0x9a, 0x3e, 0xad, 0xb4, 0x2b, 0x3e, 0xde, 0xf6, 0x69, 0x3e,
    0x97, 0xee, 0xa9, 0x3d, 0x95, 0xdd, 0x47, 0xbe, 0xca, 0xcf, 0x96, 0x3e,
    0x61, 0x6d, 0xb0, 0xbe, 0xb3, 0xc2, 0x8e, 0x3e, 0xcb, 0xfa, 0x83, 0xbe,
    0x1a, 0x33, 0x1d, 0xbe, 0x7d, 0xbe, 0xfa, 0x3d, 0x07, 0x32, 0xae, 0x3e,
    0xc6, 0x10, 0x13, 0xbd, 0x1e, 0x1a, 0x92, 0xbe, 0xde, 0xb3, 0x52, 0x3e,
    0xed, 0x6c, 0x1f, 0xbe, 0x48, 0x85, 0xe4, 0x3d, 0xbc, 0xed, 0x20, 0xbe,
    0x05, 0x32, 0x69, 0xbe, 0x40, 0x9f, 0xce, 0xbd, 0x70, 0x24, 0xae, 0xbd,
    0xba, 0xbc, 0xaf, 0x3e, 0x52, 0x11, 0x56, 0x3e, 0x21, 0x74, 0x36, 0xbe,
    0x29, 0x86, 0xb7, 0x3c, 0x88, 0x89, 0x8e, 0xbd, 0xa2, 0x47, 0xb8, 0xbe,
    0xa6, 0x5f, 0x76, 0x3e, 0x50, 0x57, 0xf6, 0x3d, 0x3b, 0xcc, 0x7f, 0xbe,
    0x12, 0xe1, 0x61, 0xbe, 0x7c, 0x79, 0xdf, 0x3d, 0x6f, 0x0c, 0x8e, 0x3e,
    0x5b, 0xd8, 0x8c, 0x3e, 0xd6, 0x84, 0x3c, 0x3e, 0x0b, 0x5d, 0x60, 0xbc,
    0x30, 0x0b, 0xe1, 0x3c, 0x79, 0x5e, 0x01, 0xbd, 0x8e, 0x40, 0x80, 0x3d,
    0x1c, 0x25, 0x87, 0xbe, 0x97, 0x86, 0x5f, 0x3e, 0x60, 0x64, 0x99, 0x3d,
    0x75, 0xa3, 0xae, 0x3d, 0xa6, 0x25, 0x1d, 0x3e, 0xbf, 0x8d, 0xd2, 0xbd,
    0x63, 0x26, 0xe9, 0xbd, 0x10, 0x6c, 0xbf, 0xbc, 0x48, 0x9a, 0x07, 0xbe,
    0x38, 0xf3, 0xfd, 0x3d, 0xd0, 0x45, 0x8c, 0xbe, 0x08, 0xdb, 0xa6, 0x3d,
    0xde, 0xe6, 0x0c, 0x3e, 0x06, 0x3b, 0x5e, 0x3e, 0x3d, 0xfb, 0x97, 0x3e,
    0xb0, 0x30, 0x9a, 0xbd, 0xb2, 0x31, 0x9b, 0xbe, 0x20, 0xba, 0xcb, 0x3d,
    0x3f, 0xb3, 0x1d, 0xbe, 0xbc, 0x26, 0xf9, 0xbd, 0xa7, 0x76, 0x9a, 0xbe,
    0x48, 0xfa, 0x89, 0x3d, 0x2c, 0x87, 0xa7, 0xbd, 0x78, 0xd1, 0x83, 0x3e,
    0xf4, 0xc0, 0x8b, 0xbe, 0x92, 0xfb, 0x1e, 0x3e, 0xe6, 0x7a, 0x92, 0xbe,
    0x20, 0x30, 0xaa, 0xbd, 0x1d, 0x88, 0x06, 0xbe, 0x3d, 0xd2, 0x92, 0xbe,
    0xa8, 0x21, 0x64, 0xbd, 0xfa, 0x88, 0x35, 0x3e, 0xef, 0x84, 0x5b, 0xbe,
    0x05, 0xe5, 0x5d, 0x3e, 0xff, 0xbe, 0xa6, 0x3e, 0x8e, 0x08, 0xae, 0xbe,
    0x48, 0xb8, 0x1c, 0x3d, 0x2c, 0x3a, 0x82, 0xbe, 0x11, 0x4d, 0x19, 0xbe,
    0x47, 0xe0, 0xb4, 0xbe, 0x62, 0x84, 0x92, 0x3d, 0xc4, 0x79, 0xcb, 0x3d,
    0xc3, 0x2c, 0x95, 0x3e, 0xde, 0x1d, 0x42, 0x3e, 0x7e, 0x40, 0x18, 0x3e,
    0xd6, 0xfe, 0xff, 0xff, 0x04, 0x00, 0x00, 0x00, 0x80, 0x00, 0x00, 0x00,
    0x28, 0x45, 0x37, 0xbd, 0x17, 0x4c, 0xdc, 0xbb, 0x98, 0xf7, 0x22, 0xbe,
    0xc8, 0xa4, 0x37, 0x3e, 0x52, 0xb9, 0x43, 0x3e, 0x24, 0x99, 0xaa, 0xbe,
    0xd2, 0x4b, 0xb9, 0x3e, 0xda, 0xcd, 0xcf, 0x3e, 0xec, 0xfc, 0x1b, 0xbe,
    0x96, 0xe1, 0x07, 0xbe, 0x94, 0xa3, 0x24, 0x3e, 0x86, 0xc0, 0x31, 0xbe,
    0x60, 0x9a, 0x2c, 0xbd, 0x69, 0xb8, 0xc6, 0x3e, 0xf2, 0xc1, 0xb1, 0xbe,
    0x0d, 0x65, 0x7c, 0x3d, 0x82, 0x54, 0x90, 0xbe, 0x04, 0x9e, 0x8d, 0x3e,
    0x76, 0xfc, 0x68, 0x3e, 0x32, 0x9f, 0xb0, 0xbe, 0x61, 0xf4, 0xf9, 0x3d,
    0x98, 0xab, 0x19, 0xbd, 0xf2, 0x2e, 0xbc, 0x3e, 0xd4, 0xef, 0x0d, 0xbe,
    0x05, 0xd6, 0x83, 0x3e, 0x9e, 0x84, 0xf5, 0x3e, 0xac, 0x57, 0x03, 0xbe,
    0x4e, 0x63, 0x77, 0x3e, 0x0f, 0x72, 0x6f, 0xbe, 0x3a, 0x4c, 0xb2, 0x3e,
    0x0b, 0xda, 0xd7, 0xbe, 0x98, 0x68, 0x22, 0xbd, 0x62, 0xff, 0xff, 0xff,
    0x04, 0x00, 0x00, 0x00, 0x80, 0x00, 0x00, 0x00, 0x00, 0x00, 0x00, 0x00,
    0x21, 0x85, 0xb0, 0xbc, 0x00, 0x00, 0x00, 0x00, 0x12, 0x4b, 0x66, 0xbc,
    0x2c, 0xe7, 0x32, 0xbf, 0x00, 0x00, 0x00, 0x00, 0xcc, 0xe4, 0xec, 0xbe,
    0x5f, 0x81, 0x4a, 0xbf, 0x00, 0x00, 0x00, 0x00, 0x00, 0x00, 0x00, 0x00,
    0x40, 0x01, 0xb2, 0xbc, 0x00, 0x00, 0x00, 0x00, 0x00, 0x00, 0x00, 0x00,
    0x23, 0x57, 0x00, 0xbf, 0x00, 0x00, 0x00, 0x00, 0x96, 0x7b, 0x23, 0x3f,
    0x00, 0x00, 0x00, 0x00, 0xdb, 0xa1, 0xbe, 0xbb, 0x24, 0x1b, 0x3f, 0x3e,
    0x00, 0x00, 0x00, 0x00, 0x9c, 0xe3, 0x82, 0x3d, 0x00, 0x00, 0x00, 0x00,
    0x78, 0x1f, 0xc1, 0xbe, 0x00, 0x00, 0x00, 0x00, 0x22, 0x95, 0x23, 0xbf,
    0xde, 0x88, 0x18, 0x3d, 0x00, 0x00, 0x00, 0x00, 0x8b, 0x72, 0xe7, 0x3d,
    0x00, 0x00, 0x00, 0x00, 0xc1, 0xef, 0x14, 0xbf, 0x00, 0x00, 0x00, 0x00,
    0x00, 0x00, 0x00, 0x00, 0xee, 0xff, 0xff, 0xff, 0x04, 0x00, 0x00, 0x00,
    0x04, 0x00, 0x00, 0x00, 0x5d, 0xcc, 0x90, 0xbe, 0x00, 0x00, 0x06, 0x00,
    0x08, 0x00, 0x04, 0x00, 0x06, 0x00, 0x00, 0x00, 0x04, 0x00, 0x00, 0x00,
    0x40, 0x00, 0x00, 0x00, 0x35, 0x37, 0x89, 0xbd, 0xa7, 0x82, 0x11, 0x3d,
    0xfd, 0x0b, 0xc0, 0xbc, 0xe4, 0xa9, 0xa5, 0xbe, 0x88, 0x9d, 0xf2, 0x3d,
    0x7d, 0x11, 0x9e, 0x3e, 0x88, 0x25, 0x4c, 0x3d, 0xb3, 0x65, 0x47, 0xbd,
    0xc7, 0x1e, 0xa4, 0xbc, 0x9c, 0x76, 0x20, 0xbc, 0x54, 0xfc, 0x18, 0xbe,
    0x22, 0x75, 0x0d, 0xbd, 0x3b, 0xab, 0x3e, 0xbf, 0xf3, 0x4b, 0x9b, 0xbc,
    0x2c, 0x93, 0xae, 0xbc, 0x05, 0xc3, 0x13, 0xbd, 0x20, 0xfb, 0xff, 0xff,
    0x24, 0xfb, 0xff, 0xff, 0x0f, 0x00, 0x00, 0x00, 0x4d, 0x4c, 0x49, 0x52,
    0x20, 0x43, 0x6f, 0x6e, 0x76, 0x65, 0x72, 0x74, 0x65, 0x64, 0x2e, 0x00,
    0x01, 0x00, 0x00, 0x00, 0x14, 0x00, 0x00, 0x00, 0x00, 0x00, 0x0e, 0x00,
    0x18, 0x00, 0x14, 0x00, 0x10, 0x00, 0x0c, 0x00, 0x08, 0x00, 0x04, 0x00,
    0x0e, 0x00, 0x00, 0x00, 0x14, 0x00, 0x00, 0x00, 0x1c, 0x00, 0x00, 0x00,
    0xd8, 0x00, 0x00, 0x00, 0xdc, 0x00, 0x00, 0x00, 0xe0, 0x00, 0x00, 0x00,
    0x04, 0x00, 0x00, 0x00, 0x6d, 0x61, 0x69, 0x6e, 0x00, 0x00, 0x00, 0x00,
    0x03, 0x00, 0x00, 0x00, 0x80, 0x00, 0x00, 0x00, 0x38, 0x00, 0x00, 0x00,
    0x04, 0x00, 0x00, 0x00, 0x9a, 0xff, 0xff, 0xff, 0x10, 0x00, 0x00, 0x00,
    0x00, 0x00, 0x00, 0x08, 0x0c, 0x00, 0x00, 0x00, 0x10, 0x00, 0x00, 0x00,
    0x9c, 0xfb, 0xff, 0xff, 0x01, 0x00, 0x00, 0x00, 0x09, 0x00, 0x00, 0x00,
    0x03, 0x00, 0x00, 0x00, 0x08, 0x00, 0x00, 0x00, 0x06, 0x00, 0x00, 0x00,
    0x02, 0x00, 0x00, 0x00, 0xca, 0xff, 0xff, 0xff, 0x10, 0x00, 0x00, 0x00,
    0x00, 0x00, 0x00, 0x08, 0x10, 0x00, 0x00, 0x00, 0x14, 0x00, 0x00, 0x00,
    0xba, 0xff, 0xff, 0xff, 0x00, 0x00, 0x00, 0x01, 0x01, 0x00, 0x00, 0x00,
    0x08, 0x00, 0x00, 0x00, 0x03, 0x00, 0x00, 0x00, 0x07, 0x00, 0x00, 0x00,
    0x05, 0x00, 0x00, 0x00, 0x01, 0x00, 0x00, 0x00, 0x00, 0x00, 0x0e, 0x00,
    0x16, 0x00, 0x00, 0x00, 0x10, 0x00, 0x0c, 0x00, 0x0b, 0x00, 0x04, 0x00,
    0x0e, 0x00, 0x00, 0x00, 0x18, 0x00, 0x00, 0x00, 0x00, 0x00, 0x00, 0x08,
    0x18, 0x00, 0x00, 0x00, 0x1c, 0x00, 0x00, 0x00, 0x00, 0x00, 0x06, 0x00,
    0x08, 0x00, 0x07, 0x00, 0x06, 0x00, 0x00, 0x00, 0x00, 0x00, 0x00, 0x01,
    0x01, 0x00, 0x00, 0x00, 0x07, 0x00, 0x00, 0x00, 0x03, 0x00, 0x00, 0x00,
    0x00, 0x00, 0x00, 0x00, 0x04, 0x00, 0x00, 0x00, 0x03, 0x00, 0x00, 0x00,
    0x01, 0x00, 0x00, 0x00, 0x09, 0x00, 0x00, 0x00, 0x01, 0x00, 0x00, 0x00,
    0x00, 0x00, 0x00, 0x00, 0x0a, 0x00, 0x00, 0x00, 0x8c, 0x03, 0x00, 0x00,
    0x1c, 0x03, 0x00, 0x00, 0xac, 0x02, 0x00, 0x00, 0x58, 0x02, 0x00, 0x00,
    0x10, 0x02, 0x00, 0x00, 0xc4, 0x01, 0x00, 0x00, 0x78, 0x01, 0x00, 0x00,
    0xf0, 0x00, 0x00, 0x00, 0x60, 0x00, 0x00, 0x00, 0x04, 0x00, 0x00, 0x00,
    0xb2, 0xfc, 0xff, 0xff, 0x00, 0x00, 0x00, 0x01, 0x14, 0x00, 0x00, 0x00,
    0x1c, 0x00, 0x00, 0x00, 0x1c, 0x00, 0x00, 0x00, 0x0a, 0x00, 0x00, 0x00,
    0x34, 0x00, 0x00, 0x00, 0x02, 0x00, 0x00, 0x00, 0xff, 0xff, 0xff, 0xff,
    0x01, 0x00, 0x00, 0x00, 0x9c, 0xfc, 0xff, 0xff, 0x19, 0x00, 0x00, 0x00,
    0x53, 0x74, 0x61, 0x74, 0x65, 0x66, 0x75, 0x6c, 0x50, 0x61, 0x72, 0x74,
    0x69, 0x74, 0x69, 0x6f, 0x6e, 0x65, 0x64, 0x43, 0x61, 0x6c, 0x6c, 0x3a,
    0x30, 0x00, 0x00, 0x00, 0x02, 0x00, 0x00, 0x00, 0x01, 0x00, 0x00, 0x00,
    0x01, 0x00, 0x00, 0x00, 0x0a, 0xfd, 0xff, 0xff, 0x00, 0x00, 0x00, 0x01,
    0x14, 0x00, 0x00, 0x00, 0x1c, 0x00, 0x00, 0x00, 0x1c, 0x00, 0x00, 0x00,
    0x09, 0x00, 0x00, 0x00, 0x68, 0x00, 0x00, 0x00, 0x02, 0x00, 0x00, 0x00,
    0xff, 0xff, 0xff, 0xff, 0x10, 0x00, 0x00, 0x00, 0xf4, 0xfc, 0xff, 0xff,
    0x4c, 0x00, 0x00, 0x00, 0x73, 0x65, 0x71, 0x75, 0x65, 0x6e, 0x74, 0x69,
    0x61, 0x6c, 0x2f, 0x64, 0x65, 0x6e, 0x73, 0x65, 0x5f, 0x31, 0x2f, 0x4d,
    0x61, 0x74, 0x4d, 0x75, 0x6c, 0x3b, 0x73, 0x65, 0x71, 0x75, 0x65, 0x6e,
    0x74, 0x69, 0x61, 0x6c, 0x2f, 0x64, 0x65, 0x6e, 0x73, 0x65, 0x5f, 0x31,
    0x2f, 0x52, 0x65, 0x6c, 0x75, 0x3b, 0x73, 0x65, 0x71, 0x75, 0x65, 0x6e,
    0x74, 0x69, 0x61, 0x6c, 0x2f, 0x64, 0x65, 0x6e, 0x73, 0x65, 0x5f, 0x31,
    0x2f, 0x42, 0x69, 0x61, 0x73, 0x41, 0x64, 0x64, 0x00, 0x00, 0x00, 0x00,
    0x02, 0x00, 0x00, 0x00, 0x01, 0x00, 0x00, 0x00, 0x10, 0x00, 0x00, 0x00,
    0x96, 0xfd, 0xff, 0xff, 0x00, 0x00, 0x00, 0x01, 0x14, 0x00, 0x00, 0x00,
    0x1c, 0x00, 0x00, 0x00, 0x1c, 0x00, 0x00, 0x00, 0x08, 0x00, 0x00, 0x00,
    0x60, 0x00, 0x00, 0x00, 0x02, 0x00, 0x00, 0x00, 0xff, 0xff, 0xff, 0xff,
    0x20, 0x00, 0x00, 0x00, 0x80, 0xfd, 0xff, 0xff, 0x46, 0x00, 0x00, 0x00,
    0x73, 0x65, 0x71, 0x75, 0x65, 0x6e, 0x74, 0x69, 0x61, 0x6c, 0x2f, 0x64,
    0x65, 0x6e, 0x73, 0x65, 0x2f, 0x4d, 0x61, 0x74, 0x4d, 0x75, 0x6c, 0x3b,
    0x73, 0x65, 0x71, 0x75, 0x65, 0x6e, 0x74, 0x69, 0x61, 0x6c, 0x2f, 0x64,
    0x65, 0x6e, 0x73, 0x65, 0x2f, 0x52, 0x65, 0x6c, 0x75, 0x3b, 0x73, 0x65,
    0x71, 0x75, 0x65, 0x6e, 0x74, 0x69, 0x61, 0x6c, 0x2f, 0x64, 0x65, 0x6e,
    0x73, 0x65, 0x2f, 0x42, 0x69, 0x61, 0x73, 0x41, 0x64, 0x64, 0x00, 0x00,
    0x02, 0x00, 0x00, 0x00, 0x01, 0x00, 0x00, 0x00, 0x20, 0x00, 0x00, 0x00,
    0x86, 0xfe, 0xff, 0xff, 0x00, 0x00, 0x00, 0x01, 0x10, 0x00, 0x00, 0x00,
    0x10, 0x00, 0x00, 0x00, 0x07, 0x00, 0x00, 0x00, 0x28, 0x00, 0x00, 0x00,
    0xf4, 0xfd, 0xff, 0xff, 0x19, 0x00, 0x00, 0x00, 0x73, 0x65, 0x71, 0x75,
    0x65, 0x6e, 0x74, 0x69, 0x61, 0x6c, 0x2f, 0x64, 0x65, 0x6e, 0x73, 0x65,
    0x5f, 0x32, 0x2f, 0x4d, 0x61, 0x74, 0x4d, 0x75, 0x6c, 0x00, 0x00, 0x00,
    0x02, 0x00, 0x00, 0x00, 0x01, 0x00, 0x00, 0x00, 0x10, 0x00, 0x00, 0x00,
    0xce, 0xfe, 0xff, 0xff, 0x00, 0x00, 0x00, 0x01, 0x10, 0x00, 0x00, 0x00,
    0x10, 0x00, 0x00, 0x00, 0x06, 0x00, 0x00, 0x00, 0x28, 0x00, 0x00, 0x00,
    0x3c, 0xfe, 0xff, 0xff, 0x19, 0x00, 0x00, 0x00, 0x73, 0x65, 0x71, 0x75,
    0x65, 0x6e, 0x74, 0x69, 0x61, 0x6c, 0x2f, 0x64, 0x65, 0x6e, 0x73, 0x65,
    0x5f, 0x31, 0x2f, 0x4d, 0x61, 0x74, 0x4d, 0x75, 0x6c, 0x00, 0x00, 0x00,
    0x02, 0x00, 0x00, 0x00, 0x10, 0x00, 0x00, 0x00, 0x20, 0x00, 0x00, 0x00,
    0x16, 0xff, 0xff, 0xff, 0x00, 0x00, 0x00, 0x01, 0x10, 0x00, 0x00, 0x00,
    0x10, 0x00, 0x00, 0x00, 0x05, 0x00, 0x00, 0x00, 0x24, 0x00, 0x00, 0x00,
    0x84, 0xfe, 0xff, 0xff, 0x17, 0x00, 0x00, 0x00, 0x73, 0x65, 0x71, 0x75,
    0x65, 0x6e, 0x74, 0x69, 0x61, 0x6c, 0x2f, 0x64, 0x65, 0x6e, 0x73, 0x65,
    0x2f, 0x4d, 0x61, 0x74, 0x4d, 0x75, 0x6c, 0x00, 0x02, 0x00, 0x00, 0x00,
    0x20, 0x00, 0x00, 0x00, 0x01, 0x00, 0x00, 0x00, 0x5a, 0xff, 0xff, 0xff,
    0x00, 0x00, 0x00, 0x01, 0x10, 0x00, 0x00, 0x00, 0x10, 0x00, 0x00, 0x00,
    0x04, 0x00, 0x00, 0x00, 0x34, 0x00, 0x00, 0x00, 0xc8, 0xfe, 0xff, 0xff,
    0x27, 0x00, 0x00, 0x00, 0x73, 0x65, 0x71, 0x75, 0x65, 0x6e, 0x74, 0x69,
    0x61, 0x6c, 0x2f, 0x64, 0x65, 0x6e, 0x73, 0x65, 0x2f, 0x42, 0x69, 0x61,
    0x73, 0x41, 0x64, 0x64, 0x2f, 0x52, 0x65, 0x61, 0x64, 0x56, 0x61, 0x72,
    0x69, 0x61, 0x62, 0x6c, 0x65, 0x4f, 0x70, 0x00, 0x01, 0x00, 0x00, 0x00,
    0x20, 0x00, 0x00, 0x00, 0xaa, 0xff, 0xff, 0xff, 0x00, 0x00, 0x00, 0x01,
    0x10, 0x00, 0x00, 0x00, 0x10, 0x00, 0x00, 0x00, 0x03, 0x00, 0x00, 0x00,
    0x38, 0x00, 0x00, 0x00, 0x18, 0xff, 0xff, 0xff, 0x29, 0x00, 0x00, 0x00,
    0x73, 0x65, 0x71, 0x75, 0x65, 0x6e, 0x74, 0x69, 0x61, 0x6c, 0x2f, 0x64,
    0x65, 0x6e, 0x73, 0x65, 0x5f, 0x32, 0x2f, 0x42, 0x69, 0x61, 0x73, 0x41,
    0x64, 0x64, 0x2f, 0x52, 0x65, 0x61, 0x64, 0x56, 0x61, 0x72, 0x69, 0x61,
    0x62, 0x6c, 0x65, 0x4f, 0x70, 0x00, 0x00, 0x00, 0x01, 0x00, 0x00, 0x00,
    0x01, 0x00, 0x00, 0x00, 0x00, 0x00, 0x16, 0x00, 0x18, 0x00, 0x14, 0x00,
    0x00, 0x00, 0x10, 0x00, 0x0c, 0x00, 0x08, 0x00, 0x00, 0x00, 0x00, 0x00,
    0x00, 0x00, 0x07, 0x00, 0x16, 0x00, 0x00, 0x00, 0x00, 0x00, 0x00, 0x01,
    0x10, 0x00, 0x00, 0x00, 0x10, 0x00, 0x00, 0x00, 0x02, 0x00, 0x00, 0x00,
    0x38, 0x00, 0x00, 0x00, 0x84, 0xff, 0xff, 0xff, 0x29, 0x00, 0x00, 0x00,
    0x73, 0x65, 0x71, 0x75, 0x65, 0x6e, 0x74, 0x69, 0x61, 0x6c, 0x2f, 0x64,
    0x65, 0x6e, 0x73, 0x65, 0x5f, 0x31, 0x2f, 0x42, 0x69, 0x61, 0x73, 0x41,
    0x64, 0x64, 0x2f, 0x52, 0x65, 0x61, 0x64, 0x56, 0x61, 0x72, 0x69, 0x61,
    0x62, 0x6c, 0x65, 0x4f, 0x70, 0x00, 0x00, 0x00, 0x01, 0x00, 0x00, 0x00,
    0x10, 0x00, 0x00, 0x00, 0x00, 0x00, 0x16, 0x00, 0x1c, 0x00, 0x18, 0x00,
    0x00, 0x00, 0x14, 0x00, 0x10, 0x00, 0x0c, 0x00, 0x00, 0x00, 0x00, 0x00,
    0x08, 0x00, 0x07, 0x00, 0x16, 0x00, 0x00, 0x00, 0x00, 0x00, 0x00, 0x01,
    0x14, 0x00, 0x00, 0x00, 0x20, 0x00, 0x00, 0x00, 0x20, 0x00, 0x00, 0x00,
    0x01, 0x00, 0x00, 0x00, 0x3c, 0x00, 0x00, 0x00, 0x02, 0x00, 0x00, 0x00,
    0xff, 0xff, 0xff, 0xff, 0x01, 0x00, 0x00, 0x00, 0x04, 0x00, 0x04, 0x00,
    0x04, 0x00, 0x00, 0x00, 0x1d, 0x00, 0x00, 0x00, 0x73, 0x65, 0x72, 0x76,
    0x69, 0x6e, 0x67, 0x5f, 0x64, 0x65, 0x66, 0x61, 0x75, 0x6c, 0x74, 0x5f,
    0x64, 0x65, 0x6e, 0x73, 0x65, 0x5f, 0x69, 0x6e, 0x70, 0x75, 0x74, 0x3a,
    0x30, 0x00, 0x00, 0x00, 0x02, 0x00, 0x00, 0x00, 0x01, 0x00, 0x00, 0x00,
    0x01, 0x00, 0x00, 0x00, 0x01, 0x00, 0x00, 0x00, 0x10, 0x00, 0x00, 0x00,
    0x0c, 0x00, 0x0c, 0x00, 0x0b, 0x00, 0x00, 0x00, 0x00, 0x00, 0x04, 0x00,
    0x0c, 0x00, 0x00, 0x00, 0x09, 0x00, 0x00, 0x00, 0x00, 0x00, 0x00, 0x09};

unsigned int sine_model_quantized_tflite_len = 4320;
